TRT-6001-EntropyCalibration2
input: 3c0d35ba
MobilenetV1/MobilenetV1/Conv2d_0/Conv2D: 3d019a45
MobilenetV1/MobilenetV1/Conv2d_0/BatchNorm/FusedBatchNorm: 3d63ee73
MobilenetV1/MobilenetV1/Conv2d_0/Relu6: 3d418306
MobilenetV1/MobilenetV1/Conv2d_1_depthwise/depthwise: 3f27e92b
MobilenetV1/MobilenetV1/Conv2d_1_depthwise/BatchNorm/FusedBatchNorm: 3d17d1dd
MobilenetV1/MobilenetV1/Conv2d_1_depthwise/Relu6: 3d418306
MobilenetV1/MobilenetV1/Conv2d_1_pointwise/Conv2D: 3dec5723
MobilenetV1/MobilenetV1/Conv2d_1_pointwise/BatchNorm/FusedBatchNorm: 3e2d63fa
MobilenetV1/MobilenetV1/Conv2d_1_pointwise/Relu6: 3d418306
MobilenetV1/MobilenetV1/Conv2d_2_depthwise/depthwise: 3ed3b1d0
MobilenetV1/MobilenetV1/Conv2d_2_depthwise/BatchNorm/FusedBatchNorm: 3ddce520
MobilenetV1/MobilenetV1/Conv2d_2_depthwise/Relu6: 3d418306
MobilenetV1/MobilenetV1/Conv2d_2_pointwise/Conv2D: 3dc459d3
MobilenetV1/MobilenetV1/Conv2d_2_pointwise/BatchNorm/FusedBatchNorm: 3ddd3104
MobilenetV1/MobilenetV1/Conv2d_2_pointwise/Relu6: 3d418306
MobilenetV1/MobilenetV1/Conv2d_3_depthwise/depthwise: 3e596bfb
MobilenetV1/MobilenetV1/Conv2d_3_depthwise/BatchNorm/FusedBatchNorm: 3da7a54f
MobilenetV1/MobilenetV1/Conv2d_3_depthwise/Relu6: 3d418306
MobilenetV1/MobilenetV1/Conv2d_3_pointwise/Conv2D: 3da6f9c3
MobilenetV1/MobilenetV1/Conv2d_3_pointwise/BatchNorm/FusedBatchNorm: 3dcc4bb8
MobilenetV1/MobilenetV1/Conv2d_3_pointwise/Relu6: 3d418306
MobilenetV1/MobilenetV1/Conv2d_4_depthwise/depthwise: 3e8f94e4
MobilenetV1/MobilenetV1/Conv2d_4_depthwise/BatchNorm/FusedBatchNorm: 3dabd998
MobilenetV1/MobilenetV1/Conv2d_4_depthwise/Relu6: 3d418306
MobilenetV1/MobilenetV1/Conv2d_4_pointwise/Conv2D: 3d895362
MobilenetV1/MobilenetV1/Conv2d_4_pointwise/BatchNorm/FusedBatchNorm: 3d879e61
MobilenetV1/MobilenetV1/Conv2d_4_pointwise/Relu6: 3d418306
MobilenetV1/MobilenetV1/Conv2d_5_depthwise/depthwise: 3df6ea89
MobilenetV1/MobilenetV1/Conv2d_5_depthwise/BatchNorm/FusedBatchNorm: 3db64277
MobilenetV1/MobilenetV1/Conv2d_5_depthwise/Relu6: 3d418306
MobilenetV1/MobilenetV1/Conv2d_5_pointwise/Conv2D: 3da5a089
MobilenetV1/MobilenetV1/Conv2d_5_pointwise/BatchNorm/FusedBatchNorm: 3d6e0a28
MobilenetV1/MobilenetV1/Conv2d_5_pointwise/Relu6: 3d418306
MobilenetV1/MobilenetV1/Conv2d_6_depthwise/depthwise: 3e40d02d
MobilenetV1/MobilenetV1/Conv2d_6_depthwise/BatchNorm/FusedBatchNorm: 3d6e6e9e
MobilenetV1/MobilenetV1/Conv2d_6_depthwise/Relu6: 3d418306
MobilenetV1/MobilenetV1/Conv2d_6_pointwise/Conv2D: 3d62875c
MobilenetV1/MobilenetV1/Conv2d_6_pointwise/BatchNorm/FusedBatchNorm: 3d9995aa
MobilenetV1/MobilenetV1/Conv2d_6_pointwise/Relu6: 3d418306
MobilenetV1/MobilenetV1/Conv2d_7_depthwise/depthwise: 3dc84c76
MobilenetV1/MobilenetV1/Conv2d_7_depthwise/BatchNorm/FusedBatchNorm: 3d9d9999
MobilenetV1/MobilenetV1/Conv2d_7_depthwise/Relu6: 3d418306
MobilenetV1/MobilenetV1/Conv2d_7_pointwise/Conv2D: 3dad126a
MobilenetV1/MobilenetV1/Conv2d_7_pointwise/BatchNorm/FusedBatchNorm: 3d493f30
MobilenetV1/MobilenetV1/Conv2d_7_pointwise/Relu6: 3d418306
MobilenetV1/MobilenetV1/Conv2d_8_depthwise/depthwise: 3d92208f
MobilenetV1/MobilenetV1/Conv2d_8_depthwise/BatchNorm/FusedBatchNorm: 3d64cada
MobilenetV1/MobilenetV1/Conv2d_8_depthwise/Relu6: 3d418306
MobilenetV1/MobilenetV1/Conv2d_8_pointwise/Conv2D: 3d566136
MobilenetV1/MobilenetV1/Conv2d_8_pointwise/BatchNorm/FusedBatchNorm: 3d352741
MobilenetV1/MobilenetV1/Conv2d_8_pointwise/Relu6: 3d418306
MobilenetV1/MobilenetV1/Conv2d_9_depthwise/depthwise: 3d8a2b9f
MobilenetV1/MobilenetV1/Conv2d_9_depthwise/BatchNorm/FusedBatchNorm: 3d18dc7a
MobilenetV1/MobilenetV1/Conv2d_9_depthwise/Relu6: 3d418306
MobilenetV1/MobilenetV1/Conv2d_9_pointwise/Conv2D: 3d217015
MobilenetV1/MobilenetV1/Conv2d_9_pointwise/BatchNorm/FusedBatchNorm: 3d310d1f
MobilenetV1/MobilenetV1/Conv2d_9_pointwise/Relu6: 3d418306
MobilenetV1/MobilenetV1/Conv2d_10_depthwise/depthwise: 3d79b0c9
MobilenetV1/MobilenetV1/Conv2d_10_depthwise/BatchNorm/FusedBatchNorm: 3d1fce4c
MobilenetV1/MobilenetV1/Conv2d_10_depthwise/Relu6: 3d418306
MobilenetV1/MobilenetV1/Conv2d_10_pointwise/Conv2D: 3d4f5fdf
MobilenetV1/MobilenetV1/Conv2d_10_pointwise/BatchNorm/FusedBatchNorm: 3d973257
MobilenetV1/MobilenetV1/Conv2d_10_pointwise/Relu6: 3d418306
MobilenetV1/MobilenetV1/Conv2d_11_depthwise/depthwise: 3d8bd74b
MobilenetV1/MobilenetV1/Conv2d_11_depthwise/BatchNorm/FusedBatchNorm: 3d06ceda
MobilenetV1/MobilenetV1/Conv2d_11_depthwise/Relu6: 3d418306
MobilenetV1/MobilenetV1/Conv2d_11_pointwise/Conv2D: 3d7061a3
MobilenetV1/MobilenetV1/Conv2d_11_pointwise/BatchNorm/FusedBatchNorm: 3d5922f1
MobilenetV1/MobilenetV1/Conv2d_11_pointwise/Relu6: 3d418306
MobilenetV1/MobilenetV1/Conv2d_12_depthwise/depthwise: 3d84ac00
MobilenetV1/MobilenetV1/Conv2d_12_depthwise/BatchNorm/FusedBatchNorm: 3cae556a
MobilenetV1/MobilenetV1/Conv2d_12_depthwise/Relu6: 3d418306
MobilenetV1/MobilenetV1/Conv2d_12_pointwise/Conv2D: 3d78bae9
MobilenetV1/MobilenetV1/Conv2d_12_pointwise/BatchNorm/FusedBatchNorm: 3d89693e
MobilenetV1/MobilenetV1/Conv2d_12_pointwise/Relu6: 3d418306
MobilenetV1/MobilenetV1/Conv2d_13_depthwise/depthwise: 3d3ba722
MobilenetV1/MobilenetV1/Conv2d_13_depthwise/BatchNorm/FusedBatchNorm: 3d1afafc
MobilenetV1/MobilenetV1/Conv2d_13_depthwise/Relu6: 3d418306
MobilenetV1/MobilenetV1/Conv2d_13_pointwise/Conv2D: 3ccdff70
MobilenetV1/MobilenetV1/Conv2d_13_pointwise/BatchNorm/FusedBatchNorm: 3e1c7b3c
MobilenetV1/MobilenetV1/Conv2d_13_pointwise/Relu6: 3d418306
MobilenetV1/Logits/AvgPool_1a/AvgPool: 3d418f1e
MobilenetV1/Logits/Conv2d_1c_1x1/Conv2D: 3de6af44
MobilenetV1/Logits/SpatialSqueeze: 3ddaff7e
(Unnamed Layer* 222) [Shuffle]_output: 3ddaff7e
MobilenetV1/Predictions/Reshape: 3ddaff7e
MobilenetV1/Predictions/Softmax: 3a8e2d38
(Unnamed Layer* 225) [Shuffle]_output: 3a8e2d38
MobilenetV1/Predictions/Reshape_1: 3a8e2d38
