TRT-6001-EntropyCalibration2
Input: 3c010a14
FeatureExtractor/MobilenetV1/MobilenetV1/Conv2d_0/BatchNorm/batchnorm/mul_1: 3e78c65b
FeatureExtractor/MobilenetV1/MobilenetV1/Conv2d_0/BatchNorm/batchnorm/add_1: 3d8a8002
FeatureExtractor/MobilenetV1/MobilenetV1/Conv2d_0/Relu6: 3d418306
FeatureExtractor/MobilenetV1/MobilenetV1/Conv2d_1_depthwise/depthwise: 3e742b1d
FeatureExtractor/MobilenetV1/MobilenetV1/Conv2d_1_depthwise/BatchNorm/batchnorm/mul_1: 3eb96c2e
FeatureExtractor/MobilenetV1/MobilenetV1/Conv2d_1_depthwise/BatchNorm/batchnorm/add_1: 3e1f0d09
FeatureExtractor/MobilenetV1/MobilenetV1/Conv2d_1_depthwise/Relu6: 3d418306
FeatureExtractor/MobilenetV1/MobilenetV1/Conv2d_1_pointwise/BatchNorm/batchnorm/mul_1: 3f0510d6
FeatureExtractor/MobilenetV1/MobilenetV1/Conv2d_1_pointwise/BatchNorm/batchnorm/add_1: 3e61487b
FeatureExtractor/MobilenetV1/MobilenetV1/Conv2d_1_pointwise/Relu6: 3d418306
FeatureExtractor/MobilenetV1/MobilenetV1/Conv2d_2_depthwise/depthwise: 3dc282aa
FeatureExtractor/MobilenetV1/MobilenetV1/Conv2d_2_depthwise/BatchNorm/batchnorm/mul_1: 3e15a355
FeatureExtractor/MobilenetV1/MobilenetV1/Conv2d_2_depthwise/BatchNorm/batchnorm/add_1: 3d3fcaee
FeatureExtractor/MobilenetV1/MobilenetV1/Conv2d_2_depthwise/Relu6: 3d418306
FeatureExtractor/MobilenetV1/MobilenetV1/Conv2d_2_pointwise/BatchNorm/batchnorm/mul_1: 3e470535
FeatureExtractor/MobilenetV1/MobilenetV1/Conv2d_2_pointwise/BatchNorm/batchnorm/add_1: 3dd9dcbe
FeatureExtractor/MobilenetV1/MobilenetV1/Conv2d_2_pointwise/Relu6: 3d418306
FeatureExtractor/MobilenetV1/MobilenetV1/Conv2d_3_depthwise/depthwise: 3db41d41
FeatureExtractor/MobilenetV1/MobilenetV1/Conv2d_3_depthwise/BatchNorm/batchnorm/mul_1: 3e508aca
FeatureExtractor/MobilenetV1/MobilenetV1/Conv2d_3_depthwise/BatchNorm/batchnorm/add_1: 3df8a569
FeatureExtractor/MobilenetV1/MobilenetV1/Conv2d_3_depthwise/Relu6: 3d418306
FeatureExtractor/MobilenetV1/MobilenetV1/Conv2d_3_pointwise/BatchNorm/batchnorm/mul_1: 3e453fd6
FeatureExtractor/MobilenetV1/MobilenetV1/Conv2d_3_pointwise/BatchNorm/batchnorm/add_1: 3e1485f0
FeatureExtractor/MobilenetV1/MobilenetV1/Conv2d_3_pointwise/Relu6: 3d418306
FeatureExtractor/MobilenetV1/MobilenetV1/Conv2d_4_depthwise/depthwise: 3dbc79df
FeatureExtractor/MobilenetV1/MobilenetV1/Conv2d_4_depthwise/BatchNorm/batchnorm/mul_1: 3d94cbbf
FeatureExtractor/MobilenetV1/MobilenetV1/Conv2d_4_depthwise/BatchNorm/batchnorm/add_1: 3d42a7fc
FeatureExtractor/MobilenetV1/MobilenetV1/Conv2d_4_depthwise/Relu6: 3d418306
FeatureExtractor/MobilenetV1/MobilenetV1/Conv2d_4_pointwise/BatchNorm/batchnorm/mul_1: 3e405b6d
FeatureExtractor/MobilenetV1/MobilenetV1/Conv2d_4_pointwise/BatchNorm/batchnorm/add_1: 3dff1c97
FeatureExtractor/MobilenetV1/MobilenetV1/Conv2d_4_pointwise/Relu6: 3d418306
FeatureExtractor/MobilenetV1/MobilenetV1/Conv2d_5_depthwise/depthwise: 3d91f037
FeatureExtractor/MobilenetV1/MobilenetV1/Conv2d_5_depthwise/BatchNorm/batchnorm/mul_1: 3dc25c18
FeatureExtractor/MobilenetV1/MobilenetV1/Conv2d_5_depthwise/BatchNorm/batchnorm/add_1: 3daf845d
FeatureExtractor/MobilenetV1/MobilenetV1/Conv2d_5_depthwise/Relu6: 3d418306
FeatureExtractor/MobilenetV1/MobilenetV1/Conv2d_5_pointwise/BatchNorm/batchnorm/mul_1: 3ddf1732
FeatureExtractor/MobilenetV1/MobilenetV1/Conv2d_5_pointwise/BatchNorm/batchnorm/add_1: 3d9cafb7
FeatureExtractor/MobilenetV1/MobilenetV1/Conv2d_5_pointwise/Relu6: 3d418306
FeatureExtractor/MobilenetV1/MobilenetV1/Conv2d_6_depthwise/depthwise: 3d6ebc07
FeatureExtractor/MobilenetV1/MobilenetV1/Conv2d_6_depthwise/BatchNorm/batchnorm/mul_1: 3dfdbfa4
FeatureExtractor/MobilenetV1/MobilenetV1/Conv2d_6_depthwise/BatchNorm/batchnorm/add_1: 3d39e853
FeatureExtractor/MobilenetV1/MobilenetV1/Conv2d_6_depthwise/Relu6: 3d418306
FeatureExtractor/MobilenetV1/MobilenetV1/Conv2d_6_pointwise/BatchNorm/batchnorm/mul_1: 3dd3e511
FeatureExtractor/MobilenetV1/MobilenetV1/Conv2d_6_pointwise/BatchNorm/batchnorm/add_1: 3dbc0e30
FeatureExtractor/MobilenetV1/MobilenetV1/Conv2d_6_pointwise/Relu6: 3d418306
FeatureExtractor/MobilenetV1/MobilenetV1/Conv2d_7_depthwise/depthwise: 3d4e1b3c
FeatureExtractor/MobilenetV1/MobilenetV1/Conv2d_7_depthwise/BatchNorm/batchnorm/mul_1: 3e01d73d
FeatureExtractor/MobilenetV1/MobilenetV1/Conv2d_7_depthwise/BatchNorm/batchnorm/add_1: 3d8bf58a
FeatureExtractor/MobilenetV1/MobilenetV1/Conv2d_7_depthwise/Relu6: 3d418306
FeatureExtractor/MobilenetV1/MobilenetV1/Conv2d_7_pointwise/BatchNorm/batchnorm/mul_1: 3de3c800
FeatureExtractor/MobilenetV1/MobilenetV1/Conv2d_7_pointwise/BatchNorm/batchnorm/add_1: 3dc9ea5c
FeatureExtractor/MobilenetV1/MobilenetV1/Conv2d_7_pointwise/Relu6: 3d418306
FeatureExtractor/MobilenetV1/MobilenetV1/Conv2d_8_depthwise/depthwise: 3d0aa65a
FeatureExtractor/MobilenetV1/MobilenetV1/Conv2d_8_depthwise/BatchNorm/batchnorm/mul_1: 3e554e0f
FeatureExtractor/MobilenetV1/MobilenetV1/Conv2d_8_depthwise/BatchNorm/batchnorm/add_1: 3d1cf590
FeatureExtractor/MobilenetV1/MobilenetV1/Conv2d_8_depthwise/Relu6: 3d418306
FeatureExtractor/MobilenetV1/MobilenetV1/Conv2d_8_pointwise/BatchNorm/batchnorm/mul_1: 3dbb1c49
FeatureExtractor/MobilenetV1/MobilenetV1/Conv2d_8_pointwise/BatchNorm/batchnorm/add_1: 3d54a4ef
FeatureExtractor/MobilenetV1/MobilenetV1/Conv2d_8_pointwise/Relu6: 3d418306
FeatureExtractor/MobilenetV1/MobilenetV1/Conv2d_9_depthwise/depthwise: 3d0ad896
FeatureExtractor/MobilenetV1/MobilenetV1/Conv2d_9_depthwise/BatchNorm/batchnorm/mul_1: 3df719cc
FeatureExtractor/MobilenetV1/MobilenetV1/Conv2d_9_depthwise/BatchNorm/batchnorm/add_1: 3d54b47b
FeatureExtractor/MobilenetV1/MobilenetV1/Conv2d_9_depthwise/Relu6: 3d418306
FeatureExtractor/MobilenetV1/MobilenetV1/Conv2d_9_pointwise/BatchNorm/batchnorm/mul_1: 3e2be8bd
FeatureExtractor/MobilenetV1/MobilenetV1/Conv2d_9_pointwise/BatchNorm/batchnorm/add_1: 3df252f8
FeatureExtractor/MobilenetV1/MobilenetV1/Conv2d_9_pointwise/Relu6: 3d418306
FeatureExtractor/MobilenetV1/MobilenetV1/Conv2d_10_depthwise/depthwise: 3d31e49b
FeatureExtractor/MobilenetV1/MobilenetV1/Conv2d_10_depthwise/BatchNorm/batchnorm/mul_1: 3df37f49
FeatureExtractor/MobilenetV1/MobilenetV1/Conv2d_10_depthwise/BatchNorm/batchnorm/add_1: 3d1f106e
FeatureExtractor/MobilenetV1/MobilenetV1/Conv2d_10_depthwise/Relu6: 3d418306
FeatureExtractor/MobilenetV1/MobilenetV1/Conv2d_10_pointwise/BatchNorm/batchnorm/mul_1: 3e160fd8
FeatureExtractor/MobilenetV1/MobilenetV1/Conv2d_10_pointwise/BatchNorm/batchnorm/add_1: 3dc92a1f
FeatureExtractor/MobilenetV1/MobilenetV1/Conv2d_10_pointwise/Relu6: 3d418306
FeatureExtractor/MobilenetV1/MobilenetV1/Conv2d_11_depthwise/depthwise: 3d126039
FeatureExtractor/MobilenetV1/MobilenetV1/Conv2d_11_depthwise/BatchNorm/batchnorm/mul_1: 3e05b84c
FeatureExtractor/MobilenetV1/MobilenetV1/Conv2d_11_depthwise/BatchNorm/batchnorm/add_1: 3db9b671
FeatureExtractor/MobilenetV1/MobilenetV1/Conv2d_11_depthwise/Relu6: 3d418306
FeatureExtractor/MobilenetV1/MobilenetV1/Conv2d_11_pointwise/BatchNorm/batchnorm/mul_1: 3e6aa08b
FeatureExtractor/MobilenetV1/MobilenetV1/Conv2d_11_pointwise/BatchNorm/batchnorm/add_1: 3e4d4e78
FeatureExtractor/MobilenetV1/MobilenetV1/Conv2d_11_pointwise/Relu6: 3d418306
BoxPredictor_0/BoxEncodingPredictor/Conv2D: 3e03f74c
BoxPredictor_0/BoxEncodingPredictor/BiasAdd: 3e04ed06
FeatureExtractor/MobilenetV1/MobilenetV1/Conv2d_12_depthwise/depthwise: 3ce99116
FeatureExtractor/MobilenetV1/MobilenetV1/Conv2d_12_depthwise/BatchNorm/batchnorm/mul_1: 3db0d987
FeatureExtractor/MobilenetV1/MobilenetV1/Conv2d_12_depthwise/BatchNorm/batchnorm/add_1: 3d3c5b75
FeatureExtractor/MobilenetV1/MobilenetV1/Conv2d_12_depthwise/Relu6: 3d418306
FeatureExtractor/MobilenetV1/MobilenetV1/Conv2d_12_pointwise/BatchNorm/batchnorm/mul_1: 3e5f0ad8
FeatureExtractor/MobilenetV1/MobilenetV1/Conv2d_12_pointwise/BatchNorm/batchnorm/add_1: 3db8ffa2
FeatureExtractor/MobilenetV1/MobilenetV1/Conv2d_12_pointwise/Relu6: 3d418306
FeatureExtractor/MobilenetV1/MobilenetV1/Conv2d_13_depthwise/depthwise: 3cef78ee
FeatureExtractor/MobilenetV1/MobilenetV1/Conv2d_13_depthwise/BatchNorm/batchnorm/mul_1: 3e23e21b
FeatureExtractor/MobilenetV1/MobilenetV1/Conv2d_13_depthwise/BatchNorm/batchnorm/add_1: 3db6beb8
FeatureExtractor/MobilenetV1/MobilenetV1/Conv2d_13_depthwise/Relu6: 3d418306
FeatureExtractor/MobilenetV1/MobilenetV1/Conv2d_13_pointwise/BatchNorm/batchnorm/mul_1: 3ef24667
FeatureExtractor/MobilenetV1/MobilenetV1/Conv2d_13_pointwise/BatchNorm/batchnorm/add_1: 3ef71db2
FeatureExtractor/MobilenetV1/MobilenetV1/Conv2d_13_pointwise/Relu6: 3d418306
BoxPredictor_1/BoxEncodingPredictor/Conv2D: 3d863e8e
BoxPredictor_1/BoxEncodingPredictor/BiasAdd: 3d54cc3e
FeatureExtractor/MobilenetV1/Conv2d_13_pointwise_1_Conv2d_2_1x1_256/BatchNorm/batchnorm/mul_1: 3df02df9
FeatureExtractor/MobilenetV1/Conv2d_13_pointwise_1_Conv2d_2_1x1_256/BatchNorm/batchnorm/add_1: 3df4b784
FeatureExtractor/MobilenetV1/Conv2d_13_pointwise_1_Conv2d_2_1x1_256/Relu6: 3d418306
FeatureExtractor/MobilenetV1/Conv2d_13_pointwise_2_Conv2d_2_3x3_s2_512/BatchNorm/batchnorm/mul_1: 3def53dc
FeatureExtractor/MobilenetV1/Conv2d_13_pointwise_2_Conv2d_2_3x3_s2_512/BatchNorm/batchnorm/add_1: 3e091af2
FeatureExtractor/MobilenetV1/Conv2d_13_pointwise_2_Conv2d_2_3x3_s2_512/Relu6: 3d418306
BoxPredictor_2/BoxEncodingPredictor/Conv2D: 3d135534
BoxPredictor_2/BoxEncodingPredictor/BiasAdd: 3d12b44f
FeatureExtractor/MobilenetV1/Conv2d_13_pointwise_1_Conv2d_3_1x1_128/BatchNorm/batchnorm/mul_1: 3de53872
FeatureExtractor/MobilenetV1/Conv2d_13_pointwise_1_Conv2d_3_1x1_128/BatchNorm/batchnorm/add_1: 3ddf2da0
FeatureExtractor/MobilenetV1/Conv2d_13_pointwise_1_Conv2d_3_1x1_128/Relu6: 3d418306
FeatureExtractor/MobilenetV1/Conv2d_13_pointwise_2_Conv2d_3_3x3_s2_256/BatchNorm/batchnorm/mul_1: 3df0eb43
FeatureExtractor/MobilenetV1/Conv2d_13_pointwise_2_Conv2d_3_3x3_s2_256/BatchNorm/batchnorm/add_1: 3dfe52b3
FeatureExtractor/MobilenetV1/Conv2d_13_pointwise_2_Conv2d_3_3x3_s2_256/Relu6: 3d418306
BoxPredictor_3/BoxEncodingPredictor/Conv2D: 3cec933e
BoxPredictor_3/BoxEncodingPredictor/BiasAdd: 3cdbdc6b
FeatureExtractor/MobilenetV1/Conv2d_13_pointwise_1_Conv2d_4_1x1_128/BatchNorm/batchnorm/mul_1: 3d65ad89
FeatureExtractor/MobilenetV1/Conv2d_13_pointwise_1_Conv2d_4_1x1_128/BatchNorm/batchnorm/add_1: 3d75095b
FeatureExtractor/MobilenetV1/Conv2d_13_pointwise_1_Conv2d_4_1x1_128/Relu6: 3d418306
FeatureExtractor/MobilenetV1/Conv2d_13_pointwise_2_Conv2d_4_3x3_s2_256/BatchNorm/batchnorm/mul_1: 3dbb5d87
FeatureExtractor/MobilenetV1/Conv2d_13_pointwise_2_Conv2d_4_3x3_s2_256/BatchNorm/batchnorm/add_1: 3dc2df4b
FeatureExtractor/MobilenetV1/Conv2d_13_pointwise_2_Conv2d_4_3x3_s2_256/Relu6: 3d418306
BoxPredictor_4/BoxEncodingPredictor/Conv2D: 3c96eb72
BoxPredictor_4/BoxEncodingPredictor/BiasAdd: 3c98f04c
FeatureExtractor/MobilenetV1/Conv2d_13_pointwise_1_Conv2d_5_1x1_64/BatchNorm/batchnorm/mul_1: 3d4c2717
FeatureExtractor/MobilenetV1/Conv2d_13_pointwise_1_Conv2d_5_1x1_64/BatchNorm/batchnorm/add_1: 3d8b8a68
FeatureExtractor/MobilenetV1/Conv2d_13_pointwise_1_Conv2d_5_1x1_64/Relu6: 3d418306
FeatureExtractor/MobilenetV1/Conv2d_13_pointwise_2_Conv2d_5_3x3_s2_128/BatchNorm/batchnorm/mul_1: 3e026733
FeatureExtractor/MobilenetV1/Conv2d_13_pointwise_2_Conv2d_5_3x3_s2_128/BatchNorm/batchnorm/add_1: 3dc67055
FeatureExtractor/MobilenetV1/Conv2d_13_pointwise_2_Conv2d_5_3x3_s2_128/Relu6: 3d418306
BoxPredictor_5/BoxEncodingPredictor/Conv2D: 3ca8b023
BoxPredictor_5/BoxEncodingPredictor/BiasAdd: 3cc9fd9f
MultipleGridAnchorGenerator: 3eb59adf
MultipleGridAnchorGenerator_1: 3eb59adf
MultipleGridAnchorGenerator_2: 3eb59adf
MultipleGridAnchorGenerator_3: 3eb59adf
MultipleGridAnchorGenerator_4: 3eb59adf
MultipleGridAnchorGenerator_5: 3eb59adf
concat_priorbox: 3eb59adf
BoxPredictor_0/ClassPredictor/Conv2D: 3e4f1482
BoxPredictor_0/ClassPredictor/BiasAdd: 3e639563
BoxPredictor_1/ClassPredictor/Conv2D: 3e1850b5
BoxPredictor_1/ClassPredictor/BiasAdd: 3e2b27cf
BoxPredictor_2/ClassPredictor/Conv2D: 3e38cd31
BoxPredictor_2/ClassPredictor/BiasAdd: 3e4170bc
BoxPredictor_3/ClassPredictor/Conv2D: 3e1129a8
BoxPredictor_3/ClassPredictor/BiasAdd: 3e0bbb4c
BoxPredictor_4/ClassPredictor/Conv2D: 3dea0d6f
BoxPredictor_4/ClassPredictor/BiasAdd: 3dec2589
BoxPredictor_5/ClassPredictor/Conv2D: 3dfba32c
BoxPredictor_5/ClassPredictor/BiasAdd: 3dfe5d35
NMS_HL_1804289383: 3efa1932
NMS: 3efa1932
