TRT-6001-EntropyCalibration2
input: 3f8d35ba
resnet_v1_50/conv1/Conv2D: 41050004
resnet_v1_50/conv1/BatchNorm/FusedBatchNorm: 3e548188
resnet_v1_50/conv1/Relu: 3e44d520
resnet_v1_50/pool1/MaxPool: 3e44d520
resnet_v1_50/block1/unit_1/bottleneck_v1/shortcut/Conv2D: 3e4e1405
resnet_v1_50/block1/unit_1/bottleneck_v1/shortcut/BatchNorm/FusedBatchNorm: 3e404ba9
resnet_v1_50/block1/unit_1/bottleneck_v1/conv1/Conv2D: 3e5c461c
resnet_v1_50/block1/unit_1/bottleneck_v1/conv1/BatchNorm/FusedBatchNorm: 3e3f66d4
resnet_v1_50/block1/unit_1/bottleneck_v1/conv1/Relu: 3db78c65
resnet_v1_50/block1/unit_1/bottleneck_v1/conv2/Conv2D: 3dbd93f5
resnet_v1_50/block1/unit_1/bottleneck_v1/conv2/BatchNorm/FusedBatchNorm: 3dbf769e
resnet_v1_50/block1/unit_1/bottleneck_v1/conv2/Relu: 3dbf769e
resnet_v1_50/block1/unit_1/bottleneck_v1/conv3/Conv2D: 3d1cae9a
resnet_v1_50/block1/unit_1/bottleneck_v1/conv3/BatchNorm/FusedBatchNorm: 3d987e73
resnet_v1_50/block1/unit_1/bottleneck_v1/add: 3e41987b
resnet_v1_50/block1/unit_1/bottleneck_v1/Relu: 3e1df8fa
resnet_v1_50/block1/unit_2/bottleneck_v1/conv1/Conv2D: 3d7703e9
resnet_v1_50/block1/unit_2/bottleneck_v1/conv1/BatchNorm/FusedBatchNorm: 3d9d4beb
resnet_v1_50/block1/unit_2/bottleneck_v1/conv1/Relu: 3d82d096
resnet_v1_50/block1/unit_2/bottleneck_v1/conv2/Conv2D: 3d6aeee2
resnet_v1_50/block1/unit_2/bottleneck_v1/conv2/BatchNorm/FusedBatchNorm: 3da172e9
resnet_v1_50/block1/unit_2/bottleneck_v1/conv2/Relu: 3d91b385
resnet_v1_50/block1/unit_2/bottleneck_v1/conv3/Conv2D: 3c9d3cf5
resnet_v1_50/block1/unit_2/bottleneck_v1/conv3/BatchNorm/FusedBatchNorm: 3d7421b5
resnet_v1_50/block1/unit_2/bottleneck_v1/add: 3dcde323
resnet_v1_50/block1/unit_2/bottleneck_v1/Relu: 3de935d8
resnet_v1_50/block1/unit_3/bottleneck_v1/shortcut/MaxPool: 3de935d8
resnet_v1_50/block1/unit_3/bottleneck_v1/conv1/Conv2D: 3d7e8219
resnet_v1_50/block1/unit_3/bottleneck_v1/conv1/BatchNorm/FusedBatchNorm: 3db18233
resnet_v1_50/block1/unit_3/bottleneck_v1/conv1/Relu: 3d83f0ca
resnet_v1_50/block1/unit_3/bottleneck_v1/conv2/Conv2D: 3d3594f1
resnet_v1_50/block1/unit_3/bottleneck_v1/conv2/BatchNorm/FusedBatchNorm: 3d952654
resnet_v1_50/block1/unit_3/bottleneck_v1/conv2/Relu: 3d952654
resnet_v1_50/block1/unit_3/bottleneck_v1/conv3/Conv2D: 3cad9331
resnet_v1_50/block1/unit_3/bottleneck_v1/conv3/BatchNorm/FusedBatchNorm: 3d47a2e3
resnet_v1_50/block1/unit_3/bottleneck_v1/add: 3dcba144
resnet_v1_50/block1/unit_3/bottleneck_v1/Relu: 3dd8aa2f
resnet_v1_50/block2/unit_1/bottleneck_v1/shortcut/Conv2D: 3d973db8
resnet_v1_50/block2/unit_1/bottleneck_v1/shortcut/BatchNorm/FusedBatchNorm: 3df761d3
resnet_v1_50/block2/unit_1/bottleneck_v1/conv1/Conv2D: 3da4d6c8
resnet_v1_50/block2/unit_1/bottleneck_v1/conv1/BatchNorm/FusedBatchNorm: 3db74545
resnet_v1_50/block2/unit_1/bottleneck_v1/conv1/Relu: 3db277b9
resnet_v1_50/block2/unit_1/bottleneck_v1/conv2/Conv2D: 3da4e2d2
resnet_v1_50/block2/unit_1/bottleneck_v1/conv2/BatchNorm/FusedBatchNorm: 3da179d6
resnet_v1_50/block2/unit_1/bottleneck_v1/conv2/Relu: 3d76283f
resnet_v1_50/block2/unit_1/bottleneck_v1/conv3/Conv2D: 3ccb6cd2
resnet_v1_50/block2/unit_1/bottleneck_v1/conv3/BatchNorm/FusedBatchNorm: 3dcb34d4
resnet_v1_50/block2/unit_1/bottleneck_v1/add: 3e1849c2
resnet_v1_50/block2/unit_1/bottleneck_v1/Relu: 3e08c32f
resnet_v1_50/block2/unit_2/bottleneck_v1/conv1/Conv2D: 3d6a4f1c
resnet_v1_50/block2/unit_2/bottleneck_v1/conv1/BatchNorm/FusedBatchNorm: 3d6fa7ab
resnet_v1_50/block2/unit_2/bottleneck_v1/conv1/Relu: 3d289148
resnet_v1_50/block2/unit_2/bottleneck_v1/conv2/Conv2D: 3d121964
resnet_v1_50/block2/unit_2/bottleneck_v1/conv2/BatchNorm/FusedBatchNorm: 3d894675
resnet_v1_50/block2/unit_2/bottleneck_v1/conv2/Relu: 3d639608
resnet_v1_50/block2/unit_2/bottleneck_v1/conv3/Conv2D: 3c4c168f
resnet_v1_50/block2/unit_2/bottleneck_v1/conv3/BatchNorm/FusedBatchNorm: 3d07747b
resnet_v1_50/block2/unit_2/bottleneck_v1/add: 3da770c9
resnet_v1_50/block2/unit_2/bottleneck_v1/Relu: 3da770c9
resnet_v1_50/block2/unit_3/bottleneck_v1/conv1/Conv2D: 3db48956
resnet_v1_50/block2/unit_3/bottleneck_v1/conv1/BatchNorm/FusedBatchNorm: 3d4ed641
resnet_v1_50/block2/unit_3/bottleneck_v1/conv1/Relu: 3d44e245
resnet_v1_50/block2/unit_3/bottleneck_v1/conv2/Conv2D: 3d5afb99
resnet_v1_50/block2/unit_3/bottleneck_v1/conv2/BatchNorm/FusedBatchNorm: 3db7c706
resnet_v1_50/block2/unit_3/bottleneck_v1/conv2/Relu: 3d4f9ba0
resnet_v1_50/block2/unit_3/bottleneck_v1/conv3/Conv2D: 3c456896
resnet_v1_50/block2/unit_3/bottleneck_v1/conv3/BatchNorm/FusedBatchNorm: 3dcf582d
resnet_v1_50/block2/unit_3/bottleneck_v1/add: 3de6e101
resnet_v1_50/block2/unit_3/bottleneck_v1/Relu: 3dcf437a
resnet_v1_50/block2/unit_4/bottleneck_v1/shortcut/MaxPool: 3dcf437a
resnet_v1_50/block2/unit_4/bottleneck_v1/conv1/Conv2D: 3d728069
resnet_v1_50/block2/unit_4/bottleneck_v1/conv1/BatchNorm/FusedBatchNorm: 3daf6dcb
resnet_v1_50/block2/unit_4/bottleneck_v1/conv1/Relu: 3d954362
resnet_v1_50/block2/unit_4/bottleneck_v1/conv2/Conv2D: 3d4ee9cc
resnet_v1_50/block2/unit_4/bottleneck_v1/conv2/BatchNorm/FusedBatchNorm: 3d856446
resnet_v1_50/block2/unit_4/bottleneck_v1/conv2/Relu: 3d856446
resnet_v1_50/block2/unit_4/bottleneck_v1/conv3/Conv2D: 3c8cd822
resnet_v1_50/block2/unit_4/bottleneck_v1/conv3/BatchNorm/FusedBatchNorm: 3d08ae7a
resnet_v1_50/block2/unit_4/bottleneck_v1/add: 3dc88e01
resnet_v1_50/block2/unit_4/bottleneck_v1/Relu: 3e0063ba
resnet_v1_50/block3/unit_1/bottleneck_v1/shortcut/Conv2D: 3d8a7dad
resnet_v1_50/block3/unit_1/bottleneck_v1/shortcut/BatchNorm/FusedBatchNorm: 3dca3104
resnet_v1_50/block3/unit_1/bottleneck_v1/conv1/Conv2D: 3d5413b5
resnet_v1_50/block3/unit_1/bottleneck_v1/conv1/BatchNorm/FusedBatchNorm: 3d8bdc14
resnet_v1_50/block3/unit_1/bottleneck_v1/conv1/Relu: 3d96b31f
resnet_v1_50/block3/unit_1/bottleneck_v1/conv2/Conv2D: 3d9ca4a5
resnet_v1_50/block3/unit_1/bottleneck_v1/conv2/BatchNorm/FusedBatchNorm: 3d9ec0f0
resnet_v1_50/block3/unit_1/bottleneck_v1/conv2/Relu: 3da9aec5
resnet_v1_50/block3/unit_1/bottleneck_v1/conv3/Conv2D: 3c97409c
resnet_v1_50/block3/unit_1/bottleneck_v1/conv3/BatchNorm/FusedBatchNorm: 3d9acc5e
resnet_v1_50/block3/unit_1/bottleneck_v1/add: 3de3ee4d
resnet_v1_50/block3/unit_1/bottleneck_v1/Relu: 3dd115a6
resnet_v1_50/block3/unit_2/bottleneck_v1/conv1/Conv2D: 3daaaed0
resnet_v1_50/block3/unit_2/bottleneck_v1/conv1/BatchNorm/FusedBatchNorm: 3d36e869
resnet_v1_50/block3/unit_2/bottleneck_v1/conv1/Relu: 3d293b85
resnet_v1_50/block3/unit_2/bottleneck_v1/conv2/Conv2D: 3d1309cd
resnet_v1_50/block3/unit_2/bottleneck_v1/conv2/BatchNorm/FusedBatchNorm: 3d835fd7
resnet_v1_50/block3/unit_2/bottleneck_v1/conv2/Relu: 3d3f2cd2
resnet_v1_50/block3/unit_2/bottleneck_v1/conv3/Conv2D: 3c58054f
resnet_v1_50/block3/unit_2/bottleneck_v1/conv3/BatchNorm/FusedBatchNorm: 3d8758a3
resnet_v1_50/block3/unit_2/bottleneck_v1/add: 3da902a6
resnet_v1_50/block3/unit_2/bottleneck_v1/Relu: 3db3b0df
resnet_v1_50/block3/unit_3/bottleneck_v1/conv1/Conv2D: 3d765642
resnet_v1_50/block3/unit_3/bottleneck_v1/conv1/BatchNorm/FusedBatchNorm: 3d517eab
resnet_v1_50/block3/unit_3/bottleneck_v1/conv1/Relu: 3d517eab
resnet_v1_50/block3/unit_3/bottleneck_v1/conv2/Conv2D: 3cc0f67b
resnet_v1_50/block3/unit_3/bottleneck_v1/conv2/BatchNorm/FusedBatchNorm: 3d3780db
resnet_v1_50/block3/unit_3/bottleneck_v1/conv2/Relu: 3d372f93
resnet_v1_50/block3/unit_3/bottleneck_v1/conv3/Conv2D: 3c59ff2c
resnet_v1_50/block3/unit_3/bottleneck_v1/conv3/BatchNorm/FusedBatchNorm: 3d771d32
resnet_v1_50/block3/unit_3/bottleneck_v1/add: 3dac5643
resnet_v1_50/block3/unit_3/bottleneck_v1/Relu: 3dbdf6d0
resnet_v1_50/block3/unit_4/bottleneck_v1/conv1/Conv2D: 3d8412b4
resnet_v1_50/block3/unit_4/bottleneck_v1/conv1/BatchNorm/FusedBatchNorm: 3d505779
resnet_v1_50/block3/unit_4/bottleneck_v1/conv1/Relu: 3d3e269f
resnet_v1_50/block3/unit_4/bottleneck_v1/conv2/Conv2D: 3cb850ee
resnet_v1_50/block3/unit_4/bottleneck_v1/conv2/BatchNorm/FusedBatchNorm: 3d31f985
resnet_v1_50/block3/unit_4/bottleneck_v1/conv2/Relu: 3d1b3af6
resnet_v1_50/block3/unit_4/bottleneck_v1/conv3/Conv2D: 3ca4bfc6
resnet_v1_50/block3/unit_4/bottleneck_v1/conv3/BatchNorm/FusedBatchNorm: 3db6e3bc
resnet_v1_50/block3/unit_4/bottleneck_v1/add: 3df33cd9
resnet_v1_50/block3/unit_4/bottleneck_v1/Relu: 3dc2a0cd
resnet_v1_50/block3/unit_5/bottleneck_v1/conv1/Conv2D: 3d759e86
resnet_v1_50/block3/unit_5/bottleneck_v1/conv1/BatchNorm/FusedBatchNorm: 3d8dd173
resnet_v1_50/block3/unit_5/bottleneck_v1/conv1/Relu: 3d650fde
resnet_v1_50/block3/unit_5/bottleneck_v1/conv2/Conv2D: 3cc33c71
resnet_v1_50/block3/unit_5/bottleneck_v1/conv2/BatchNorm/FusedBatchNorm: 3d5ec40d
resnet_v1_50/block3/unit_5/bottleneck_v1/conv2/Relu: 3d5a680b
resnet_v1_50/block3/unit_5/bottleneck_v1/conv3/Conv2D: 3cff5711
resnet_v1_50/block3/unit_5/bottleneck_v1/conv3/BatchNorm/FusedBatchNorm: 3dd50c09
resnet_v1_50/block3/unit_5/bottleneck_v1/add: 3dd7e297
resnet_v1_50/block3/unit_5/bottleneck_v1/Relu: 3dacbfe4
resnet_v1_50/block3/unit_6/bottleneck_v1/shortcut/MaxPool: 3dacbfe4
resnet_v1_50/block3/unit_6/bottleneck_v1/conv1/Conv2D: 3d688668
resnet_v1_50/block3/unit_6/bottleneck_v1/conv1/BatchNorm/FusedBatchNorm: 3d9076ab
resnet_v1_50/block3/unit_6/bottleneck_v1/conv1/Relu: 3d9388fa
resnet_v1_50/block3/unit_6/bottleneck_v1/conv2/Conv2D: 3d1cb70c
resnet_v1_50/block3/unit_6/bottleneck_v1/conv2/BatchNorm/FusedBatchNorm: 3db9b875
resnet_v1_50/block3/unit_6/bottleneck_v1/conv2/Relu: 3d91d902
resnet_v1_50/block3/unit_6/bottleneck_v1/conv3/Conv2D: 3c83223a
resnet_v1_50/block3/unit_6/bottleneck_v1/conv3/BatchNorm/FusedBatchNorm: 3d43ff2e
resnet_v1_50/block3/unit_6/bottleneck_v1/add: 3db19d27
resnet_v1_50/block3/unit_6/bottleneck_v1/Relu: 3daac97f
resnet_v1_50/block4/unit_1/bottleneck_v1/shortcut/Conv2D: 3cf89a8b
resnet_v1_50/block4/unit_1/bottleneck_v1/shortcut/BatchNorm/FusedBatchNorm: 3e0ad848
resnet_v1_50/block4/unit_1/bottleneck_v1/conv1/Conv2D: 3d43279e
resnet_v1_50/block4/unit_1/bottleneck_v1/conv1/BatchNorm/FusedBatchNorm: 3d38d45b
resnet_v1_50/block4/unit_1/bottleneck_v1/conv1/Relu: 3d1b8ef8
resnet_v1_50/block4/unit_1/bottleneck_v1/conv2/Conv2D: 3d080fda
resnet_v1_50/block4/unit_1/bottleneck_v1/conv2/BatchNorm/FusedBatchNorm: 3d3af9ef
resnet_v1_50/block4/unit_1/bottleneck_v1/conv2/Relu: 3cf8d2d1
resnet_v1_50/block4/unit_1/bottleneck_v1/conv3/Conv2D: 3c0e82f4
resnet_v1_50/block4/unit_1/bottleneck_v1/conv3/BatchNorm/FusedBatchNorm: 3d9b780f
resnet_v1_50/block4/unit_1/bottleneck_v1/add: 3e2b97af
resnet_v1_50/block4/unit_1/bottleneck_v1/Relu: 3e2e595a
resnet_v1_50/block4/unit_2/bottleneck_v1/conv1/Conv2D: 3d95a682
resnet_v1_50/block4/unit_2/bottleneck_v1/conv1/BatchNorm/FusedBatchNorm: 3d191a1d
resnet_v1_50/block4/unit_2/bottleneck_v1/conv1/Relu: 3cd2cf5a
resnet_v1_50/block4/unit_2/bottleneck_v1/conv2/Conv2D: 3cb18512
resnet_v1_50/block4/unit_2/bottleneck_v1/conv2/BatchNorm/FusedBatchNorm: 3d3657d0
resnet_v1_50/block4/unit_2/bottleneck_v1/conv2/Relu: 3d10dc8d
resnet_v1_50/block4/unit_2/bottleneck_v1/conv3/Conv2D: 3beb7d80
resnet_v1_50/block4/unit_2/bottleneck_v1/conv3/BatchNorm/FusedBatchNorm: 3d98322e
resnet_v1_50/block4/unit_2/bottleneck_v1/add: 3e35aeb6
resnet_v1_50/block4/unit_2/bottleneck_v1/Relu: 3e46a4f0
resnet_v1_50/block4/unit_3/bottleneck_v1/conv1/Conv2D: 3de308e2
resnet_v1_50/block4/unit_3/bottleneck_v1/conv1/BatchNorm/FusedBatchNorm: 3d2ffd88
resnet_v1_50/block4/unit_3/bottleneck_v1/conv1/Relu: 3ce469a9
resnet_v1_50/block4/unit_3/bottleneck_v1/conv2/Conv2D: 3c84e710
resnet_v1_50/block4/unit_3/bottleneck_v1/conv2/BatchNorm/FusedBatchNorm: 3d48ba03
resnet_v1_50/block4/unit_3/bottleneck_v1/conv2/Relu: 3d01caca
resnet_v1_50/block4/unit_3/bottleneck_v1/conv3/Conv2D: 3bf34deb
resnet_v1_50/block4/unit_3/bottleneck_v1/conv3/BatchNorm/FusedBatchNorm: 3dd7925a
resnet_v1_50/block4/unit_3/bottleneck_v1/add: 3e5453fe
resnet_v1_50/block4/unit_3/bottleneck_v1/Relu: 3e5fadee
(Unnamed Layer* 440) [Shuffle]_output: 3e5fadee
resnet_v1_50/pool5: 3dcb9021
(Unnamed Layer* 443) [Shuffle]_output: 3dcb9021
resnet_v1_50/logits/Conv2D: 3e09ccb4
resnet_v1_50/SpatialSqueeze_HL_1804289383: 3e1082a1
resnet_v1_50/SpatialSqueeze: 3e1082a1
